
hal.executable private @main_dispatch_0 {
  hal.executable.binary public @cuda_nvptx_fb attributes {data = dense<"0x080000004355444138FAFFFF1C0000005000000044000000580000000400000001000000880500000100000004000000200000006D61696E5F64697370617463685F305F6D61746D756C5F31783378345F66333200000000010000000000000001000000010000000300000001000000360500002F2F0A2F2F2047656E657261746564206279204C4C564D204E56505458204261636B2D456E640A2F2F0A0A2E76657273696F6E20372E350A2E74617267657420736D5F37350A2E616464726573735F73697A652036340A0A092F2F202E676C6F626C096D61696E5F64697370617463685F305F6D61746D756C5F31783378345F6633320A0A2E76697369626C65202E656E747279206D61696E5F64697370617463685F305F6D61746D756C5F31783378345F663332280A092E706172616D202E753634206D61696E5F64697370617463685F305F6D61746D756C5F31783378345F6633325F706172616D5F302C0A092E706172616D202E753634206D61696E5F64697370617463685F305F6D61746D756C5F31783378345F6633325F706172616D5F312C0A092E706172616D202E753634206D61696E5F64697370617463685F305F6D61746D756C5F31783378345F6633325F706172616D5F320A290A2E6D61786E74696420312C20332C20310A7B0A092E726567202E623332200925723C323E3B0A092E726567202E663332200925663C32303E3B0A092E726567202E62363420092572643C373E3B0A0A096C642E706172616D2E7536342009257264312C205B6D61696E5F64697370617463685F305F6D61746D756C5F31783378345F6633325F706172616D5F305D3B0A096C642E706172616D2E7536342009257264322C205B6D61696E5F64697370617463685F305F6D61746D756C5F31783378345F6633325F706172616D5F315D3B0A096C642E706172616D2E7536342009257264332C205B6D61696E5F64697370617463685F305F6D61746D756C5F31783378345F6633325F706172616D5F325D3B0A096D6F762E75333220092572312C202563746169642E783B0A096C642E676C6F62616C2E6E632E76342E66333220097B2566312C202566322C202566332C202566347D2C205B257264315D3B0A096D756C2E776964652E7533322009257264342C202572312C20343B0A096164642E7336342009257264352C20257264322C20257264343B0A096C642E676C6F62616C2E6E632E66333220092566352C205B257264355D3B0A096C642E676C6F62616C2E6E632E66333220092566362C205B257264352B31325D3B0A096C642E676C6F62616C2E6E632E66333220092566372C205B257264352B32345D3B0A096C642E676C6F62616C2E6E632E66333220092566382C205B257264352B33365D3B0A09666D612E726E2E66333220092566392C202566312C202566352C20306630303030303030303B0A09666D612E726E2E6633322009256631302C202566322C202566362C202566393B0A09666D612E726E2E6633322009256631312C202566332C202566372C20256631303B0A09666D612E726E2E6633322009256631322C202566342C202566382C20256631313B0A096C642E676C6F62616C2E6E632E6633322009256631332C205B257264352B36345D3B0A096162732E6633322009256631342C20256631323B0A09666D612E726E2E6633322009256631352C202566312C202566352C20256631333B0A09666D612E726E2E6633322009256631362C202566322C202566362C20256631353B0A09666D612E726E2E6633322009256631372C202566332C202566372C20256631363B0A09666D612E726E2E6633322009256631382C202566342C202566382C20256631373B0A096164642E726E2E6633322009256631392C20256631342C20256631383B0A096164642E7336342009257264362C20257264332C20257264343B0A0973742E676C6F62616C2E66333220095B257264365D2C20256631393B0A097265743B0A0A7D0A0000E4FFFFFF08000000040000000A000000696E7075742E6D6C6972000008000C00040008000E001800040008000C0010001400"> : vector<1502xi8>, format = "cuda-nvptx-fb", mime_type = "application/x-flatbuffers"}
}

