
#executable_target_cuda_nvptx_fb = #hal.executable.target<"cuda", "cuda-nvptx-fb", {target_arch = "sm_75"}>
#device_target_cuda = #hal.device.target<"cuda", {executable_targets = [#executable_target_cuda_nvptx_fb], legacy_sync}>
module @LinearModule attributes {hal.device.targets = [#device_target_cuda]} {
  util.global private @_device_query_0 : i1
  util.global private @_descriptor_set_layout_0 : !hal.descriptor_set_layout
  util.global private @_pipeline_layout_0 : !hal.pipeline_layout
  util.global private @_executable_main_dispatch_0 : !hal.executable
  util.initializer {
    %device = hal.ex.shared_device : !hal.device
    %ok, %value = hal.device.query<%device : !hal.device> key("hal.executable.format" :: "cuda-nvptx-fb") : i1, i1 = false
    util.global.store %value, @_device_query_0 : i1
    %device_0 = hal.ex.shared_device : !hal.device
    %descriptor_set_layout = hal.descriptor_set_layout.create device(%device_0 : !hal.device) flags("None") bindings([#hal.descriptor_set.binding<0, storage_buffer, ReadOnly>, #hal.descriptor_set.binding<1, storage_buffer>]) : !hal.descriptor_set_layout
    util.global.store %descriptor_set_layout, @_descriptor_set_layout_0 : !hal.descriptor_set_layout
    %_descriptor_set_layout_0 = util.global.load @_descriptor_set_layout_0 : !hal.descriptor_set_layout
    %device_1 = hal.ex.shared_device : !hal.device
    %pipeline_layout = hal.pipeline_layout.create device(%device_1 : !hal.device) push_constants(4) layouts([%_descriptor_set_layout_0]) : !hal.pipeline_layout
    util.global.store %pipeline_layout, @_pipeline_layout_0 : !hal.pipeline_layout
    %c-1 = arith.constant -1 : index
    %c0 = arith.constant 0 : index
    %_device_query_0 = util.global.load @_device_query_0 : i1
    %device_2 = hal.ex.shared_device : !hal.device
    %0 = arith.select %_device_query_0, %c0, %c-1 : index
    %1 = arith.index_cast %0 : index to i32
    cf.switch %1 : i32, [
      default: ^bb2,
      0: ^bb1
    ]
  ^bb1:  // pred: ^bb0
    %_pipeline_layout_0 = util.global.load @_pipeline_layout_0 : !hal.pipeline_layout
    %exe = hal.executable.create device(%device_2 : !hal.device) target(@main_dispatch_0::@cuda_nvptx_fb) layouts([%_pipeline_layout_0]) : !hal.executable
    cf.br ^bb3(%exe : !hal.executable)
  ^bb2:  // pred: ^bb0
    %2 = util.null : !hal.executable
    cf.br ^bb3(%2 : !hal.executable)
  ^bb3(%3: !hal.executable):  // 2 preds: ^bb1, ^bb2
    util.global.store %3, @_executable_main_dispatch_0 : !hal.executable
    cf.br ^bb4
  ^bb4:  // pred: ^bb3
    util.initializer.return
  }
  hal.executable private @main_dispatch_0 {
    hal.executable.binary public @cuda_nvptx_fb attributes {data = dense<"0x080000004355444108E5FFFF1C0000005000000044000000580000000400000001000000B81A00000100000004000000200000006D61696E5F64697370617463685F305F6D61746D756C5F44784478445F66333200000000010000000000000001000000200000000800000001000000641A00002F2F0A2F2F2047656E657261746564206279204C4C564D204E56505458204261636B2D456E640A2F2F0A0A2E76657273696F6E20372E350A2E74617267657420736D5F37350A2E616464726573735F73697A652036340A0A092F2F202E676C6F626C096D61696E5F64697370617463685F305F6D61746D756C5F44784478445F6633320A0A2E76697369626C65202E656E747279206D61696E5F64697370617463685F305F6D61746D756C5F44784478445F663332280A092E706172616D202E753634206D61696E5F64697370617463685F305F6D61746D756C5F44784478445F6633325F706172616D5F302C0A092E706172616D202E753634206D61696E5F64697370617463685F305F6D61746D756C5F44784478445F6633325F706172616D5F312C0A092E706172616D202E753332206D61696E5F64697370617463685F305F6D61746D756C5F44784478445F6633325F706172616D5F322C0A092E706172616D202E753332206D61696E5F64697370617463685F305F6D61746D756C5F44784478445F6633325F706172616D5F332C0A092E706172616D202E753332206D61696E5F64697370617463685F305F6D61746D756C5F44784478445F6633325F706172616D5F342C0A092E706172616D202E753332206D61696E5F64697370617463685F305F6D61746D756C5F44784478445F6633325F706172616D5F350A290A2E6D61786E7469642033322C20382C20310A7B0A092E726567202E70726564200925703C32313E3B0A092E726567202E623332200925723C31303E3B0A092E726567202E663332200925663C31343E3B0A092E726567202E62363420092572643C3136353E3B0A0A096C642E706172616D2E753332200925726436312C205B6D61696E5F64697370617463685F305F6D61746D756C5F44784478445F6633325F706172616D5F325D3B0A096C642E706172616D2E753332200925726436322C205B6D61696E5F64697370617463685F305F6D61746D756C5F44784478445F6633325F706172616D5F335D3B0A0973686C2E623634200925726436332C2025726436322C2033323B0A096F722E623634202009257264312C2025726436332C2025726436313B0A096C642E706172616D2E7533322009257264322C205B6D61696E5F64697370617463685F305F6D61746D756C5F44784478445F6633325F706172616D5F345D3B0A096C642E706172616D2E7533322009257264332C205B6D61696E5F64697370617463685F305F6D61746D756C5F44784478445F6633325F706172616D5F355D3B0A0973686C2E623634200925726436342C20257264332C2033323B0A096F722E623634202009257264342C2025726436342C20257264323B0A096D6F762E75333220092572312C202563746169642E783B0A096376742E7536342E7533322009257264352C202572313B0A09736574702E6C742E73363420092570312C20257264342C20313B0A096E65672E733634200925726436352C20257264343B0A096164642E733634200925726436362C20257264342C202D313B0A0973656C702E623634200925726436372C2025726436352C2025726436362C202570313B0A097368722E733634200925726436382C2025726436372C2036333B0A097368722E753634200925726436392C2025726436382C2035373B0A096164642E733634200925726437302C2025726436372C2025726436393B0A097368722E733634200925726437312C2025726437302C20373B0A096E65672E733634200925726437322C2025726437313B0A096164642E733634200925726437332C2025726437312C20313B0A0973656C702E623634200925726437342C2025726437322C2025726437332C202570313B0A09616E642E62363420200925726437352C2025726437342C202D343239343936373239363B0A09736574702E6E652E73363420092570322C2025726437352C20303B0A0940257032206272612009244C5F5F4242305F323B0A096272612E756E692009244C5F5F4242305F313B0A244C5F5F4242305F323A0A096469762E73363420092572643134382C20257264352C2025726437343B0A096272612E756E692009244C5F5F4242305F333B0A244C5F5F4242305F313A0A096376742E7533322E75363420092572332C2025726437343B0A096376742E7533322E75363420092572342C20257264353B0A096469762E75333220092572352C202572342C202572333B0A096376742E7536342E75333220092572643134382C202572353B0A244C5F5F4242305F333A0A096C642E706172616D2E753634200925726436302C205B6D61696E5F64697370617463685F305F6D61746D756C5F44784478445F6633325F706172616D5F315D3B0A0973686C2E623634200925726437362C202572643134382C20353B0A097375622E733634200925726437372C20257264312C2025726437363B0A096D696E2E733634200925726437382C2025726437372C2033323B0A096D756C2E6C6F2E733634200925726437392C202572643134382C2025726437343B0A097375622E733634200925726438302C20257264352C2025726437393B0A0973686C2E623634200925726438312C2025726438302C20373B0A097375622E733634200925726438322C20257264342C2025726438313B0A096D696E2E733634200925726438332C2025726438322C203132383B0A096D6F762E75333220092572362C20257469642E783B0A096376742E7536342E753332200925726438342C202572363B0A096D6F762E75333220092572372C20257469642E793B0A096376742E7536342E753332200925726438352C202572373B0A09736574702E6C742E73363420092570332C2025726437372C20313B0A096E65672E733634200925726438362C2025726437383B0A096164642E733634200925726438372C2025726437382C202D313B0A0973656C702E623634200925726438382C2025726438362C2025726438372C202570333B0A097368722E733634200925726438392C2025726438382C2036333B0A097368722E753634200925726439302C2025726438392C2036313B0A096164642E733634200925726439312C2025726438382C2025726439303B0A097368722E733634200925726439322C2025726439312C20333B0A096E65672E733634200925726439332C2025726439323B0A096164642E733634200925726439342C2025726439322C20313B0A0973656C702E623634200925726439352C2025726439332C2025726439342C202570333B0A096D756C2E6C6F2E733634200925726439362C2025726439352C2025726438353B0A097375622E733634200925726439372C2025726437382C2025726439363B0A096D696E2E733634200925726431302C2025726439372C2025726439353B0A09736574702E6C742E73363420092570342C2025726438322C20313B0A096E65672E733634200925726439382C2025726438333B0A096164642E733634200925726439392C2025726438332C202D313B0A0973656C702E62363420092572643130302C2025726439382C2025726439392C202570343B0A097368722E73363420092572643130312C202572643130302C2036333B0A097368722E75363420092572643130322C202572643130312C2035393B0A096164642E73363420092572643130332C202572643130302C202572643130323B0A097368722E73363420092572643130342C202572643130332C20353B0A096E65672E73363420092572643130352C202572643130343B0A096164642E73363420092572643130362C202572643130342C20313B0A0973656C702E62363420092572643130372C202572643130352C202572643130362C202570343B0A096D756C2E6C6F2E73363420092572643130382C202572643130372C2025726438343B0A097375622E73363420092572643130392C2025726438332C202572643130383B0A096D696E2E733634200925726431312C202572643130392C202572643130373B0A096164642E733634200925726431322C2025726439362C2025726437363B0A096164642E733634200925726431332C202572643130382C2025726438313B0A09736574702E6C742E73363420092570352C2025726431302C20313B0A096D756C2E6C6F2E73363420092572643134332C2025726431322C20257264343B0A0973686C2E62363420092572643134342C2025726431332C20323B0A0973686C2E62363420092572643134352C20257264332C2033343B0A0973686C2E62363420092572643134362C20257264322C20323B0A09736574702E6C742E7336342009257032302C2025726431312C20313B0A0940257035206272612009244C5F5F4242305F31333B0A096D6F762E75363420092572643135312C20303B0A09616E642E62363420200925726431392C2025726431312C20373B0A09616E642E62363420200925726431352C2025726431312C202D383B0A0973686C2E62363420092572643131322C202572643134332C20323B0A096164642E73363420092572643131342C202572643131322C202572643134343B0A096164642E73363420092572643134392C2025726436302C202572643131343B0A096164642E73363420092572643135302C202572643134392C2031363B0A096F722E62363420200925726431372C202572643134352C202572643134363B0A09736574702E6C742E75363420092570372C2025726431312C20383B0A096D6F762E62333220092572392C20303B0A096272612E756E692009244C5F5F4242305F353B0A244C5F5F4242305F31323A0A096164642E73363420092572643135312C202572643135312C20313B0A096164642E73363420092572643135302C202572643135302C2025726431373B0A096164642E73363420092572643134392C202572643134392C2025726431373B0A09736574702E65712E7336342009257031312C2025726431302C202572643135313B0A094025703131206272612009244C5F5F4242305F31333B0A244C5F5F4242305F353A0A094025703230206272612009244C5F5F4242305F31323B0A096D6F762E75363420092572643135342C20303B0A0940257037206272612009244C5F5F4242305F393B0A096D6F762E75363420092572643135342C20303B0A096D6F762E75363420092572643135322C202572643135303B0A244C5F5F4242305F383A0A0973742E676C6F62616C2E75333220095B2572643135322B2D31365D2C202572393B0A0973742E676C6F62616C2E75333220095B2572643135322B2D31325D2C202572393B0A0973742E676C6F62616C2E75333220095B2572643135322B2D385D2C202572393B0A0973742E676C6F62616C2E75333220095B2572643135322B2D345D2C202572393B0A0973742E676C6F62616C2E75333220095B2572643135325D2C202572393B0A0973742E676C6F62616C2E75333220095B2572643135322B345D2C202572393B0A0973742E676C6F62616C2E75333220095B2572643135322B385D2C202572393B0A0973742E676C6F62616C2E75333220095B2572643135322B31325D2C202572393B0A096164642E73363420092572643135342C202572643135342C20383B0A096164642E73363420092572643135322C202572643135322C2033323B0A09736574702E6E652E73363420092570382C2025726431352C202572643135343B0A0940257038206272612009244C5F5F4242305F383B0A244C5F5F4242305F393A0A09736574702E65712E73363420092570392C2025726431392C20303B0A0940257039206272612009244C5F5F4242305F31323B0A0973686C2E62363420092572643131392C202572643135342C20323B0A096164642E73363420092572643135362C202572643134392C202572643131393B0A096D6F762E75363420092572643135352C2025726431393B0A244C5F5F4242305F31313A0A092E707261676D6120226E6F756E726F6C6C223B0A0973742E676C6F62616C2E75333220095B2572643135365D2C202572393B0A096164642E73363420092572643135362C202572643135362C20343B0A096164642E73363420092572643135352C202572643135352C202D313B0A09736574702E6E652E7336342009257031302C202572643135352C20303B0A094025703130206272612009244C5F5F4242305F31313B0A096272612E756E692009244C5F5F4242305F31323B0A244C5F5F4242305F31333A0A0940257031206272612009244C5F5F4242305F32353B0A096C642E706172616D2E753634200925726435392C205B6D61696E5F64697370617463685F305F6D61746D756C5F44784478445F6633325F706172616D5F305D3B0A09616E642E62363420200925726432302C2025726431312C20313B0A09616E642E62363420200925726432312C2025726431312C202D323B0A0973686C2E62363420092572643132322C202572643134332C20323B0A096164642E73363420092572643132342C202572643132322C202572643134343B0A096164642E73363420092572643132352C202572643132342C2025726436303B0A096164642E733634200925726432322C202572643132352C20343B0A096F722E62363420200925726432332C202572643134352C202572643134363B0A096164642E73363420092572643132382C202572643134342C2025726435393B0A096164642E73363420092572643135372C202572643132382C20343B0A096D6F762E75363420092572643135382C20303B0A09736574702E65712E7336342009257031352C2025726431312C20313B0A09736574702E65712E7336342009257031372C2025726432302C20303B0A096272612E756E692009244C5F5F4242305F31353B0A244C5F5F4242305F32343A0A096164642E73363420092572643135382C202572643135382C20313B0A096164642E73363420092572643135372C202572643135372C2025726432333B0A09736574702E6E652E7336342009257031392C202572643135382C20257264343B0A094025703139206272612009244C5F5F4242305F31353B0A096272612E756E692009244C5F5F4242305F32353B0A244C5F5F4242305F31353A0A0940257035206272612009244C5F5F4242305F32343B0A0973686C2E62363420092572643133302C202572643135382C20323B0A096164642E733634200925726434332C2025726435392C202572643133303B0A096D756C2E6C6F2E73363420092572643133312C202572643135382C20257264343B0A0973686C2E62363420092572643133322C202572643133312C20323B0A096164642E733634200925726434342C2025726435392C202572643133323B0A096D6F762E75363420092572643136302C20303B0A096D6F762E75363420092572643135392C2025726432323B0A096272612E756E692009244C5F5F4242305F31373B0A244C5F5F4242305F32333A0A096164642E73363420092572643136302C202572643136302C20313B0A096164642E73363420092572643135392C202572643135392C2025726432333B0A09736574702E6E652E7336342009257031382C2025726431302C202572643136303B0A094025703138206272612009244C5F5F4242305F31373B0A096272612E756E692009244C5F5F4242305F32343B0A244C5F5F4242305F31373A0A094025703230206272612009244C5F5F4242305F32333B0A096164642E73363420092572643133342C202572643136302C2025726431323B0A096D756C2E6C6F2E73363420092572643133352C202572643133342C20257264343B0A0973686C2E62363420092572643133362C202572643133352C20323B0A096164642E73363420092572643133372C2025726434332C202572643133363B0A096C642E676C6F62616C2E6E632E66333220092566312C205B2572643133375D3B0A096D6F762E75363420092572643136342C20303B0A094025703135206272612009244C5F5F4242305F32313B0A096D6F762E75363420092572643136342C20303B0A096D6F762E75363420092572643136312C202572643135373B0A096D6F762E75363420092572643136322C202572643135393B0A244C5F5F4242305F32303A0A096C642E676C6F62616C2E6E632E66333220092566322C205B2572643136312B2D345D3B0A096C642E676C6F62616C2E66333220092566332C205B2572643136322B2D345D3B0A096D756C2E726E2E66333220092566342C202566312C202566323B0A096164642E726E2E66333220092566352C202566332C202566343B0A0973742E676C6F62616C2E66333220095B2572643136322B2D345D2C202566353B0A096C642E676C6F62616C2E6E632E66333220092566362C205B2572643136315D3B0A096C642E676C6F62616C2E66333220092566372C205B2572643136325D3B0A096D756C2E726E2E66333220092566382C202566312C202566363B0A096164642E726E2E66333220092566392C202566372C202566383B0A0973742E676C6F62616C2E66333220095B2572643136325D2C202566393B0A096164642E73363420092572643136342C202572643136342C20323B0A096164642E73363420092572643136322C202572643136322C20383B0A096164642E73363420092572643136312C202572643136312C20383B0A09736574702E6E652E7336342009257031362C2025726432312C202572643136343B0A094025703136206272612009244C5F5F4242305F32303B0A244C5F5F4242305F32313A0A094025703137206272612009244C5F5F4242305F32333B0A096164642E733634200925726434372C2025726436302C202572643133363B0A096164642E73363420092572643133392C202572643136342C2025726431333B0A0973686C2E62363420092572643134302C202572643133392C20323B0A096164642E73363420092572643134312C2025726434342C202572643134303B0A096C642E676C6F62616C2E6E632E6633322009256631302C205B2572643134315D3B0A096164642E73363420092572643134322C2025726434372C202572643134303B0A096C642E676C6F62616C2E6633322009256631312C205B2572643134325D3B0A096D756C2E726E2E6633322009256631322C202566312C20256631303B0A096164642E726E2E6633322009256631332C20256631312C20256631323B0A0973742E676C6F62616C2E66333220095B2572643134325D2C20256631333B0A096272612E756E692009244C5F5F4242305F32333B0A244C5F5F4242305F32353A0A097265743B0A0A7D0A00000000E4FFFFFF08000000020000000B000000696E707574322E6D6C69720008000C00040008000E001800040008000C0010001400"> : vector<6926xi8>, format = "cuda-nvptx-fb", mime_type = "application/x-flatbuffers"}
  }
  func.func @main(%arg0: !hal.buffer_view) -> !hal.buffer_view attributes {iree.abi.stub} {
    %c553648160_i32 = arith.constant 553648160 : i32
    %c1_i32 = arith.constant 1 : i32
    %c0 = arith.constant 0 : index
    %c4 = arith.constant 4 : index
    %c32_i64 = arith.constant 32 : i64
    %c-1_i64 = arith.constant -1 : i64
    %c0_i64 = arith.constant 0 : i64
    %c-1_i32 = arith.constant -1 : i32
    %c-1 = arith.constant -1 : index
    %c1 = arith.constant 1 : index
    %_device_query_0 = util.global.load @_device_query_0 : i1
    %0 = hal.buffer_view.dim<%arg0 : !hal.buffer_view>[0] : index
    %1 = hal.buffer_view.dim<%arg0 : !hal.buffer_view>[1] : index
    hal.buffer_view.assert<%arg0 : !hal.buffer_view> message("input 0") shape([%0, %1]) type(%c553648160_i32) encoding(%c1_i32)
    %2 = arith.muli %0, %c4 : index
    %3 = arith.muli %2, %1 : index
    %buffer = hal.buffer_view.buffer<%arg0 : !hal.buffer_view> : !hal.buffer
    %device = hal.ex.shared_device : !hal.device
    %allocator = hal.device.allocator<%device : !hal.device> : !hal.allocator
    hal.buffer.assert<%buffer : !hal.buffer> message("tensor") allocator(%allocator : !hal.allocator) minimum_length(%3) type(DeviceVisible) usage("TransferSource|TransferTarget|Transfer|DispatchStorageRead|DispatchStorageWrite|DispatchStorage")
    %4 = util.null : !hal.fence
    %fence = hal.fence.create device(%device : !hal.device) flags("None") : !hal.fence
    %transient_buffer = hal.device.queue.alloca<%device : !hal.device> affinity(%c-1_i64) wait(%4) signal(%fence) pool(%c0_i64) type("DeviceVisible|DeviceLocal") usage("TransferSource|TransferTarget|Transfer|DispatchStorageRead|DispatchStorageWrite|DispatchStorage") : !hal.buffer{%3}
    %status = hal.fence.await until([%fence]) timeout_millis(%c-1_i32) : i32
    %5 = arith.index_castui %0 : index to i64
    %6 = arith.trunci %5 : i64 to i32
    %7 = arith.shrui %5, %c32_i64 : i64
    %8 = arith.trunci %7 : i64 to i32
    %9 = arith.index_castui %1 : index to i64
    %10 = arith.trunci %9 : i64 to i32
    %11 = arith.shrui %9, %c32_i64 : i64
    %12 = arith.trunci %11 : i64 to i32
    %cmd = hal.command_buffer.create device(%device : !hal.device) mode("OneShot|AllowInlineExecution") categories("Transfer|Dispatch") : !hal.command_buffer
    %13 = arith.select %_device_query_0, %c0, %c-1 : index
    %14 = arith.index_cast %13 : index to i32
    cf.switch %14 : i32, [
      default: ^bb2,
      0: ^bb1
    ]
  ^bb1:  // pred: ^bb0
    %_pipeline_layout_0 = util.global.load @_pipeline_layout_0 : !hal.pipeline_layout
    hal.command_buffer.push_constants<%cmd : !hal.command_buffer> layout(%_pipeline_layout_0 : !hal.pipeline_layout) offset(0) values([%6, %8, %10, %12]) : i32, i32, i32, i32
    hal.command_buffer.push_descriptor_set<%cmd : !hal.command_buffer> layout(%_pipeline_layout_0 : !hal.pipeline_layout)[%c0] bindings([
      %c0 = (%buffer : !hal.buffer)[%c0, %3], 
      %c1 = (%transient_buffer : !hal.buffer)[%c0, %3]
    ])
    %c128 = arith.constant 128 : index
    %c0_0 = arith.constant 0 : index
    %c1_1 = arith.constant 1 : index
    %15 = arith.cmpi sle, %1, %c0_0 : index
    %16 = arith.subi %c0_0, %1 : index
    %17 = arith.subi %1, %c1_1 : index
    %18 = arith.select %15, %16, %17 : index
    %19 = arith.divsi %18, %c128 : index
    %20 = arith.subi %c0_0, %19 : index
    %21 = arith.addi %19, %c1_1 : index
    %22 = arith.select %15, %20, %21 : index
    %c32 = arith.constant 32 : index
    %c0_2 = arith.constant 0 : index
    %c1_3 = arith.constant 1 : index
    %23 = arith.cmpi sle, %0, %c0_2 : index
    %24 = arith.subi %c0_2, %0 : index
    %25 = arith.subi %0, %c1_3 : index
    %26 = arith.select %23, %24, %25 : index
    %27 = arith.divsi %26, %c32 : index
    %28 = arith.subi %c0_2, %27 : index
    %29 = arith.addi %27, %c1_3 : index
    %30 = arith.select %23, %28, %29 : index
    %31 = arith.muli %22, %30 : index
    %_executable_main_dispatch_0 = util.global.load @_executable_main_dispatch_0 : !hal.executable
    hal.command_buffer.dispatch<%cmd : !hal.command_buffer> target(%_executable_main_dispatch_0 : !hal.executable)[0] workgroups([%31, %c1, %c1])
    cf.br ^bb3
  ^bb2:  // pred: ^bb0
    cf.br ^bb3
  ^bb3:  // 2 preds: ^bb1, ^bb2
    hal.command_buffer.execution_barrier<%cmd : !hal.command_buffer> source("Dispatch|Transfer|CommandRetire") target("CommandIssue|Dispatch|Transfer") flags("None")
    hal.command_buffer.finalize<%cmd : !hal.command_buffer>
    %fence_4 = hal.fence.create device(%device : !hal.device) flags("None") : !hal.fence
    %status_5 = hal.fence.await until([%fence]) timeout_millis(%c-1_i32) : i32
    hal.device.queue.execute<%device : !hal.device> affinity(%c-1_i64) wait(%4) signal(%fence_4) commands([%cmd])
    %status_6 = hal.fence.await until([%fence_4]) timeout_millis(%c-1_i32) : i32
    util.status.check_ok %status_6, "failed to wait on timepoint"
    %view = hal.buffer_view.create buffer(%transient_buffer : !hal.buffer)[%c0, %3] shape([%0, %1]) type(%c553648160_i32) encoding(%c1_i32) : !hal.buffer_view
    return %view : !hal.buffer_view
  }
}


